0000011110010101
1111110000011110
0000100011000111
0000100000010000
0001000001101001
1110001101000010
1101110001101100
0000110100001000
0000001001000000
1110011101010011
1100101000111110
1100000100100001
1101111101101101
0000100111000110
0001110000110001
0001010011001000
0001110111111001
0010100001010010
0010000100101011
1111000011100001
0001010000111100
0000001101100010
0001000001110011
0000110111000100
0000011101001101
0000001101010100
0001001001001110
1111011111000010
0000001010001011
0000101100101110
0010111111110011
0001010100111001
0001011000111001
1111101111100010
0000110011010010
0001101010101011
0001101101011111
0001110101100000
0001011001101010
1110010110110001
0001111101011100
0001001110100110
0000100001110101
1111101011000001
1111101010010100
0001100011101100
0010000001110000
0001101111111111
0001011010110110
0000111011110011
0100101100101011
0101100010001110
0100001010100111
0010001100001111
1111011111111011
0010001100100101
0000010111101010
0000010010011100
0000111000001110
1111010110101001
0000100110101110
0001000100101010
0000010101101010
1101111101010010
1101010111110101
0001011011001101
0001111100010111
0001010101000111
0000000100011110
0000100001010101
0010110010110010
0011101111000100
0110110011101111
0011101110000101
1101000010111001
1110000101101000
1111010010101111
0000111011001000
0001011010110000
0000101101111010
1110100001010000
1111011110110001
1110010110110101
1110000100101100
1110001100111001
1111001000010101
0000011001110000
1111101101100001
1110010000110011
1110001000100011
0000111011001101
0010101011100000
0010001110110101
0010010011100010
0000100011010000
1111010101000111
1111011000001101
1111011110111111
0001010010010001
0001010001111000
