0010101101010011
0010100111101101
0011110111111001
0011110001111011
0011101011001011
1111110100001000
0001010101111100
0010011111100100
1111010110100001
1110100101110100
0000111111000001
1111100101100101
0001101001110011
1111110101110000
0000000010100110
1111110111100010
0000101100011001
1111101110110000
1100010001001011
1100100001011001
1111101011111111
0001111110111101
0010111000100100
0001010011111001
0001010010100101
0010000011000101
0000011101010010
1111100101111001
1101001000110000
1110000001110011
1100110101000001
1110100111011101
0001000100011100
0010010101111001
0001000011000111
0000110000011100
1110100100000100
1100010100110011
1010010010000100
1100001011100001
1101110101011011
1110100100111011
0000111001011001
0000010000000010
1111001000000111
0001111100000001
0000001011010000
1110100011100101
1110000001000100
0001110000010110
1110101000101000
1011111011100011
1010111010010000
1101100101011000
1110111100110000
1101010110111100
1100110110010011
1010011100101101
1010001011110111
1011101011001101
1111001010011100
0000011110110100
0001011111000000
1111100001100000
1111010000110111
1110001100110001
1110111111101001
0001001111111011
0001111101000110
0100001111010000
1110110111110111
1111011111100100
1110100101000111
1111001011001101
1100110001010000
0000110100010101
1111111110101100
1011011001110101
1011100110111011
1100100010011111
0000101101101101
0000100111001100
1111101000110110
1101100110011101
1101100011010001
0000011000101101
0001111111000011
0001110101001010
0010111011011110
0101010110100000
1111001001110000
1111110101110110
0001100111001110
0010011101000011
0001010111101101
0010001100010110
1110100101101110
1100000111111000
1110101101100101
0001000100011011
