1111111111011010
0000010111100011
0001101001011100
0010001100010001
0001011010010101
1111111100000110
1110110101001001
0000001001011101
0000000011111001
1110101110010110
1111100100011001
1110101100100111
1110110101010000
1111010010110111
0000001100001011
0001000000001101
1111000011101000
0001001001100000
0011001101001101
0001111111110111
1111110001101000
0001000110110101
0001001000110111
0000110011011000
0000010000110000
0000111111010010
0000010000011110
0001101111011111
0000110110000100
0000101101100000
0001110001111100
0000010010110000
1111011101101011
1111010000101100
0000010001010111
0000001001101110
0000111000000001
0011111010110011
0101000110110010
0011100001110010
1111100000100111
0001011110111111
0000011101101101
0001011111100000
1111101110100111
1111001101001010
0000101011100000
0001000101111011
1111001110011101
0000111100010111
0000010101010111
0000011000111000
1111110111100001
1101000011001010
1110101111110111
0001100101100111
0010110111000001
0011101000010000
0010010011011111
1110110000101101
0000000011010101
0001110011101101
0000011001101001
1111010110011001
1101111010011110
0000010010110010
0001110101001110
0000011111110000
0000011000100000
1111101000001011
1111000100011110
1111111011100111
1111110001011111
1111010000100111
0000110101110101
0001101010011101
0001111011011010
0000011111000011
1111100111001001
1110001101010001
0000100110001001
0000101111010110
1111010111011111
1110101001000010
1101011101101000
0000000010101111
1110110000100010
1110100001100010
1101010100101000
0000100011011011
1111100001010001
0001011111011100
0001001101101010
1111010011011000
0000000100010011
0001000101101010
1111001110000001
1110000111101011
1101100001101100
1110000100110110
