0010000110010000
0010100100110010
0100001100010111
0001011110001100
0010010110001001
0001001000010111
1111011100001011
0001001101001010
0001110111111011
0000101111001011
1111011101010011
0001110111000011
0010111011000000
0000101001001100
1101110000100011
1001111101000100
1101011101011110
1110110111111100
0000111001100010
0010111010011001
