0100100010101001
0110000001101010
0100110000100101
0011011100000000
0100010000011011
0010111100001110
0011111010110101
0010101110110010
0010011000001101
0001100110110010
0101011000001011
0111001010110101
0011011011101100
1110100100100001
1101000011000001
1011101000000010
1111001111001011
1111111000001000
0010001011000111
0001100011101100
