1011110010101111
1110101010110101
1110110000010000
0000001000111101
0000111001100111
1110101100101110
0000101000000001
0100010111110010
0001101111011010
0001000110101100
1010011111111111
0000111101001101
0011110000111010
0011011101011011
1101101011001011
1000000000000000
1100100010111000
1111101100111000
0010110010001111
0011011011001111
