1110011101110001
1100010000011100
1011010101001011
1101111001100100
0000000100100110
0011000111000111
0100010110011110
1111110100101010
0000000101000111
1011110001111110
1100111110011011
1101010110100101
1101101000000001
0001101110100000
0011100101110010
1100101001010101
1111110011001100
0010101011100000
0011100111010110
0011101001101100
