1010100001011100
1011111110101011
1100110111011100
1011111001011001
1100110001110001
0000110101101011
0010101000001101
0011111011100110
0001111000101010
1101000001100110
1100010111101001
1111000011011000
0011000111010010
0100000111100010
0000001101111001
1000110001100110
1100011110000010
0000010011010000
0010110010001110
0010110100001101
