1111010011000100
1110101011010110
1101000101000011
1111000101001100
1111011000111001
1111001000011000
0000011010000001
1111100100010110
1110001000000010
1101110010011011
1111001001111001
1111110100110111
0000000100101110
0000011100111011
1111001110111001
1111110100111110
0000001000001000
0000010101001011
0000000100010010
0010011001011001
1111100111010001
1110000011100111
1110011001011001
1110110000000100
0000100101010101
1111101010100110
1111010100110110
1111010010010100
0000001101101011
0001001101110010
0000010110010101
1110011101000111
1111001101100011
1111100100100111
0000100110110100
1110000111110011
0001011110100111
0011110101000110
0100010110111011
0011100111001110
0001011101000100
0000101001100001
0001100011100111
1111100000010111
0000011110010111
1101110000001110
1111100010011100
1111111000101001
0001010001111011
0011000011110111
1111110001110000
0000010001011001
1101100000010001
1100111011011111
0000110001111000
0000010100010000
0001100011011011
0010110001110001
0100001001111001
0001111011001011
0000101010011000
0010000011000000
1111111011111011
1111010001011000
1110101011001110
1111101000010101
1110011001011111
0001011010011001
0001011011101111
1111010001010111
1110101110010100
0000010110111100
1111011011011100
1101110110011111
0000000111011111
0000010000101011
0000001111000010
0001010010111110
0010001111000000
0000101000010010
1111100110000001
0001011001000001
1111100111100011
1110111001100101
1101110100000111
1011101111100011
1001000100101110
1100101000100101
1110010101110000
1100101100001100
1111101101111101
1111101001000010
1111101111111101
1111101100010111
1110100010100111
1111011001100101
0000100100010001
0000100101011111
0001010101101001
0000001110110101
