0000000010000110
1111010101110110
1110001001011100
1110011100111011
1111111100010101
1111011011111000
0000001011100010
1111111000111010
0000011110111011
1111011111001101
1110010111010111
1111000010011101
0000101010111000
1101000100100101
1101010011100100
1110011010110001
1111000000110110
0000000011100011
1110111110101000
0000100101010001
1101011101010000
0000010010011101
1110100111010101
0001110101111101
1111110011011010
1111010111000101
0000000010111111
0001001011010111
0001100011001110
0001110011001111
0000111111000100
1111010000101110
0000101110100000
1111110011100001
0000100011101110
0010101000001111
1111000101101101
1111001011100111
0001001101001010
0000010100111100
1111011001001011
1111111011001101
0001000010110011
1100111010101000
0000010011001000
0001000010100001
0000001101011111
1001011011011011
1110010011100110
1111000110000101
1111001111000101
0000100000010001
0010001101110111
0000011011010010
1111010110010111
0000100010110111
0010011010000100
1110001100010001
1111000001110000
0010101100010100
0001001000000011
1110111101110101
1111110110000110
1110000110001000
1100001000010011
0010100001011001
1111111101101011
1100101111111110
0010001100010101
1101000110110000
1111101100100110
1111111010011011
0001001000000100
0010001100111011
0000000000111010
1111010011101100
0010100111010100
1111011010101000
1111010010011111
1110101000000011
1110101100101110
1111010011011011
1110111010011111
1101110100000100
1101011110010011
1110111000110010
1111101010111001
1011111100000111
1101111101000010
0000100101101100
0000011001111110
1110101111101111
1111110100110111
1111111100011111
0000101011101100
0000011101110100
1111000010100111
1111100101111000
0001000000100001
1110000100001001
1100010101110001
1101101010000101
1111010011110000
1111110011110100
1111011011110110
1011100000110110
0000010110101101
1111101011110111
1111111001011000
1110100111100000
0000100000000000
0010001111110101
1111100001010000
0001001111100101
0010100010101010
0011000101000101
1100100111111001
0010000101111001
0000011110010101
1111001010110100
1111011110111101
0010000011010011
1111110000010101
1110000100111000
1110011000110110
0010000100010101
1110111011111101
1110011010111100
0000011100000000
0010100101000000
0001100010100000
0000100110001100
1111001101111010
0000111100000111
1110110011010100
1110011110101100
0000101011000110
1111010101011101
1110001111100110
1101111111110010
0011100110110000
0000101000111101
1110111001010110
0000001011100000
0001110110100110
1111010111111010
0000001001010001
1110000101110000
1111001100100111
0000000000001110
1111011001011101
0000111001101100
1111011110100111
0000100011001000
0001001101111001
0001110100011100
0010001111000100
0001010111101001
0010000010100010
0001110110101101
1101101011110101
0000001001110001
0001100001010010
0001111111100110
1100011010101000
1110101100111010
0000011110101010
1110101101001011
1110011100101111
1110100011101101
0000010001110001
1111000100011011
1110111001011010
0000100011011101
0001001000100111
0010001100111001
1101110101111111
1111100100100011
1111100100101111
0000001111011100
1011100100010110
1101100111111000
0001000111001001
0001011010001110
0000111001011001
0000001111010110
0000001111110001
1111111001001010
0010000110001110
1111110001010110
1111100010100011
1011111101101011
1101101100010010
1111101010101110
0001001110011011
1111101110101011
1111001001011000
0001000000110011
1111111101111011
1111011000010111
1110011000000010
0000010101100100
0000011111111111
1111011100011101
1100111001111111
1111011001001101
0000100101011010
0000001010010010
0000011111010111
1111100100010001
0000000000101100
0010010001010100
0001101111100011
0001011000010000
0001010111001111
0000011110000010
0000110111000100
1111010000110110
1111100111010110
0000111000100100
1111101111011111
1110101111111011
0000110101101111
0000010111110011
1110000110110110
1111000101110001
0000100101100000
0000001001010111
1100101101110110
1110001010111110
1111111111010100
0000000000100111
1110111010010010
0000101010011100
0001011101010000
0001111100100010
0010001010000111
1111011101000000
0000100111010000
1110101100110100
1100000101000101
1110100011111111
0000000111010100
0000100001000111
1101110001101110
0000100000110000
0001011011111000
0000110110010010
1101011001101101
1111100100100101
1111000001010110
1110111010001010
1101000101010111
1110100010111011
0001001011111110
0010110100101110
0001001110011000
1110110010100010
1100001010110110
1111110011110000
1111101010111011
1011000011001001
1011101110010011
0000011000011010
1111100101101100
1111011000101111
1111011011101100
1110110110111000
0010001110110011
0001000011010011
0001011111011111
0001110010100110
1110001111111101
1111011101101000
1111111001110110
1101001101010011
0010111100000110
1111100100111010
1110000110011001
1101010100011010
0000010010011000
1111111011111110
1111110101110000
1101000110010111
1110100011001000
1101110011010010
1110111010001111
0001001100111111
0001011110110011
0000110100111111
1111111011101110
1110100001011101
0000001011011000
0000111001011110
1110111101100100
1111000111111000
0001110110101110
0000111000011010
1111011111011111
1111001001111011
1011111011010111
1110110001000001
1110101110101100
0001010110100100
0001000000010111
0010111100000111
0011100100000111
0010011111011110
0010011000000100
1110111011011011
0000111001011100
1110101100100101
0000000100111110
1101100111000110
0001010000000010
1110110110000101
1111011101001110
0000010100001011
1111111001110100
1101101000000000
1110011110110100
1111110001000000
0000001111110000
0001000000011010
1111011001010100
0000100100111001
0000101100001011
0001101110110001
1101110011110110
0000110010000010
0000111011111110
0000111111000011
1111011010010110
1111110010000010
1111101010110111
1101100100010110
0000000110001010
0000010111011111
0000000101011100
0001011010011011
0000001001100011
0001000000111100
0000101000000111
0000101011101000
0001101001101100
1111011100100101
0000001111111100
0000000110000101
0001000010110010
1111110110010011
1110110000100011
0000100101001110
0000011011111101
1111000011111100
0000000010110110
1101110010010100
0001000001101111
0000000000011001
0000010010101100
0001100111000000
1111011000010010
1111111011100001
0000101000010010
0000100010011000
0000111110000010
0001100000011110
1111001110001010
1111001110101001
0001010001101011
1111010111100101
1111100001110110
1101111001001111
0000011001100110
1111101101000011
1101110010010101
1011101010111111
1111000011110101
1111100111011010
1111000011001100
0000000000001000
1100111100001110
1111011001110000
0001011111100010
0001010111011001
0001101011010011
1101110110010110
0001000001010110
0001100001111001
0000110011101000
1100101011100101
1101011100010001
1110111001111100
1111001011100011
1111000011010101
0000010101101010
0001101010001011
1110111100010011
1111010111111001
0000000000111000
1111000110111110
1001110010111100
1111011010010010
1111000111001111
1101111000110000
1011011001101011
1111010011011110
1110010001000010
1111001001100010
1111011111101111
0000111010011010
0001010100110111
0010110011011001
0000111111110011
0001000010101000
0000111100101101
1110101110010010
1111111100111110
1101111010010011
1100101000001100
1110010110010011
0000100100110010
1111010001100111
1111110001110011
0001101000111101
0000001000010110
0000010101000110
0000111110101011
0000101001000011
1111010010110110
0010011100010101
0001000111111111
0000101000011010
0001110000001111
0000001101000100
1111111001011001
1110000001101100
0001111010100110
1111111000111011
1100010000001100
1101010100001100
0001100111111100
0000010111100111
1101111000000010
0001000000011001
0001101011101111
1111100110000101
1110111111101110
0001000110111101
0001001011011011
0000110010111101
0000101110000011
0000100001111101
0000001001101101
0001101101001111
1111110000000101
0000110100001000
0001010000001001
1111111111110001
1110100010100100
0001011110010011
0001010011011011
0000000001000110
0000011011100011
0001110000010010
0001111110101110
0001001110100111
0000010001000110
1110000010011101
0010000011111011
1111000000010010
1110111111101011
1111110001100001
0000010010010101
1101110001000110
0000001101010011
0000010101000111
1100011101011000
1110111100000011
1101011010000111
1101110101000011
0011000101110110
0001100000001011
0001011111000111
0000111100001100
1111000010011100
1100100101100101
1101110001010101
1111000110011010
1100111111011101
0000011101001101
1110101011011111
0001000101100110
1011110001110001
1100111101110001
0000000110010100
1110101001110101
1110000110101100
1100111111111001
1111111101001110
1111100011111100
1111111111110000
0000000011100100
0001100110110000
1111001101011011
0000010000110111
1111111111100010
0001000101110111
0001011101100010
1111101000110100
0001100000000101
1110110101011100
1110010011001010
1110101110111111
1100111001010001
0000100010011100
1111100000111001
1111100100000010
1111011010100000
0000011111000010
0000100111101000
1111001011000010
1110001010111001
0000001110100111
1111110010110100
1111011010011110
1111010000011011
1111011110001011
0000110011010100
1111001011011100
1101100010100010
0000110001101110
0000110101100111
1110000100010101
1111111111111110
0001101111010110
0001010110111100
1101101110010011
1111010000000111
1111011100111010
1110111010100100
1111111111000101
1111011011110111
1111100000001111
0000100111000100
1111101011011101
0000110011001001
0000101100010001
1111111011111010
0011000100011011
0001100011000111
0001010010000110
1110011000101011
1110010000000100
1111111110000101
0000101101100001
0001100100011101
0001101010000101
0000010100010101
0001000111000000
1111110100000111
0001010100010001
1111100101111110
1111110000001000
1111110001110000
1101110001011000
1110101100010011
0000001011110011
0000100000000101
1111111010100000
0001010001111101
1111001010000000
1111011011100000
0001111000101010
1111100100000101
1110110101111110
0001011000100000
1110000001000111
1110100110001111
0001100100111010
1111010010011110
0001010001011100
1110010010111000
0000111101110010
0000111100110010
1111010110010111
0000110000100011
0000001001110110
1110110001001011
1110100010111010
0000110110011010
0000110010101111
1110011101111110
1111001111001100
0000110011000000
0000100001001101
0010001000100100
0000110000110111
0000011011011110
0000111010110111
1111100000100001
0001000101011010
1111101100011111
1110010000111011
1110010101001010
1101111100010010
1101010111011001
1111001011011101
1110011000010100
1111010100010110
1110100001110011
1111101101001010
0001110100101011
0001101000001110
0001000100100100
0001001111111110
0000110001101010
0001111011100000
0000001011110110
1110001100000010
1110000111100010
1110100111111001
1111011100110111
1110110011010011
0000011000000101
0000111011111101
1110100101100110
1111100001100101
1111011101110000
0010001011100100
1111110110001011
0000010111111000
0001101101011000
1101110100101001
1110111011101110
0000110100001000
0000110011110111
1101100001001101
1111010101111110
0001011001100000
1110111110110100
